/**
  ******************************************************************************
  * @file    network_data_params.c
  * @author  AST Embedded Analytics Research Platform
  * @date    2025-04-16T05:05:10+0530
  * @brief   AI Tool Automatic Code Generator for Embedded NN computing
  ******************************************************************************
  * Copyright (c) 2025 STMicroelectronics.
  * All rights reserved.
  *
  * This software is licensed under terms that can be found in the LICENSE file
  * in the root directory of this software component.
  * If no LICENSE file comes with this software, it is provided AS-IS.
  ******************************************************************************
  */
#include "ai_platform.h"
#include "ai_platform_interface.h"
#include "network_data_params.h"


/**  Activations Section  ****************************************************/
ai_handle g_network_activations_table[1 + 2] = {
  AI_HANDLE_PTR(AI_MAGIC_MARKER),
  AI_HANDLE_PTR(NULL),
  AI_HANDLE_PTR(AI_MAGIC_MARKER),
};




/**  Weights Section  ********************************************************/
AI_ALIGNED(32)
const ai_u64 s_network_weights_array_u64[806] = {
  0x3bd4ffda3e2c69d2U, 0xbe3f5f4cbf0bbb14U, 0xbf42ea44bea6dc8bU, 0xbddb1d4cbdc0d30cU,
  0x3c4d02d1bf785f8bU, 0xbeb17fd63e095fd1U, 0xbf0c7191beea8ea5U, 0xbed77a92bf714c0aU,
  0xbf6c78acbe617325U, 0x3e50be823e96119dU, 0xbf53124b3e132b94U, 0xbf69cb64bf0a44f4U,
  0xbe403c3cbf3b2722U, 0x3dd8c76bbf3ea10aU, 0x3e610e2abe66fd31U, 0xbc65a9c63d63bac7U,
  0x3d3ad17c3eab8271U, 0x3f4a77a83e6e660cU, 0xbf03c351be913056U, 0x3d5237d8be50f2faU,
  0xbe756bf8be9a66efU, 0xbe1f85633de7531dU, 0x3e883d073e81c9eeU, 0x3da237f1bf001344U,
  0xbf42f7cabd902c62U, 0xbe255803bdd28bd1U, 0xbe622aa9bf32b9f5U, 0xbf23c8933e94e195U,
  0x3f23511ebe964258U, 0x3e4801acbe569fa2U, 0xbf82ea633e2c8c88U, 0x3f701149bf058b84U,
  0x3e0f6b343f1a554eU, 0x3fe7f3eb3fb731a3U, 0x3f9a712b3fb3305aU, 0x3f4b935d3fadd067U,
  0xbec3935c3eb3f2a7U, 0x3f10127abf7444b2U, 0x3cc4c2383f1ab154U, 0x3ed94e6f3f30a315U,
  0xbe6766ebbdf5030fU, 0x3d8aba323f3a83fcU, 0x3f0af6f2be2990f2U, 0xbee67ce2bd910472U,
  0xbf2de2c1beeaf82cU, 0x3f7495723e2cd912U, 0x3db2702d3e805c9aU, 0x3f14a38e3f6b4a06U,
  0x3f13de96bea15133U, 0xbca732913ea2db66U, 0x3ea6e4fe3f92600fU, 0x3fbdf9043e47a05bU,
  0x3daced983f1effc1U, 0x3e8477df3f889128U, 0x3d3e0650bf9deb4eU, 0x3e08c0b93f1efe08U,
  0x3db66c04be328ddeU, 0xbe20b0ffbdbc01a2U, 0xbe31fac1be1a6f00U, 0x3e0d15a73e38c51aU,
  0xbec16e18bef0103fU, 0x3ec395ed3e0b5170U, 0xbc2211c73e926785U, 0xbf14b3f6bec404c8U,
  0x3e6b023c3eb9b3dfU, 0x3d97bf9abe2bf39bU, 0x3e9c218d3e8877aeU, 0x3e450b403eaf4cf1U,
  0xbdcb4fd6bdd6cce0U, 0xbf2c7e71bea5ed13U, 0x3c33ec2e3e3e4d6dU, 0xbe47be0abe06d7bbU,
  0xbddfdbe9be21f319U, 0x3e805b8e3e9507e9U, 0x3e9691f03e5a416cU, 0xbe05712c3e4fde1bU,
  0xbd9da003bd727ba4U, 0xbea3feb43e9712a2U, 0x3e41fcc1bda55918U, 0x3e8c1a123e56d77cU,
  0xbcc739dabec9c972U, 0xbccebec23ec9cabfU, 0x3c32fd3ebea2930fU, 0x3e3493d63ee4d7c1U,
  0xbc2057d5be23912cU, 0x3e4103063e0bb7d7U, 0x3d6b5eac3d43235dU, 0xbe97de3fbd20e3beU,
  0x3e75ae523e391b45U, 0xbe0a144f3d3988e9U, 0x3e473de1bda703f7U, 0x3e617ba4be302fcfU,
  0xbead392cbe38950cU, 0xbd92451f3c199364U, 0x3e534bdf3e3fba56U, 0xbe7710ab3eb7218bU,
  0x3d91dd983e41e42eU, 0x3ef9df833eb51758U, 0xbed573863dcb76ebU, 0x3d600072bd48e0ccU,
  0xbe8ab5e73ed29922U, 0xbebdb307bd903f90U, 0x3e461e8f3effb540U, 0xbe8f9bf7bdda0ff8U,
  0xbf38faeebee7b903U, 0x3e97876bbdc43877U, 0xbecdf5b23e5105eeU, 0x3e9a2214bc83ff62U,
  0xbdd3f9fa3e9f6be4U, 0xbe14c4ffbe7c9c7eU, 0x3f28424d3e13321cU, 0xbebc8d8eb9b5977aU,
  0x3f02a868be18401aU, 0x3e19644dbc1a9401U, 0x3ee046cdbdc7d086U, 0x3efad8a93ecf30bcU,
  0xbee07c433e656dbaU, 0x3dcb3cfbbdd0ca6aU, 0x3dcfcbff3e7364d1U, 0xbd12d590be82ef48U,
  0x3e86244d3d852ef5U, 0xbe034f613c96c3edU, 0xbdc81763be562d71U, 0xbe7bf038bdabdb4eU,
  0xbeaa83b9be1795beU, 0xbe4b4406bdcad5f9U, 0xbdf66b423cf71764U, 0x3db9ebfb3e98fb5fU,
  0x3ede3747be8e198fU, 0x3eb0733e3e7b85feU, 0xbe850fefbf10ed36U, 0x3e3208733ef3b3fcU,
  0x3cad11513d3912faU, 0x3e59891c3e6db9a9U, 0x3e2254083da1aa38U, 0x3d32c2e1bcb0dd37U,
  0x3e952cebbd4b9c01U, 0xbd3f6708bc253b3cU, 0x3e4623643eacf47fU, 0xbe12d374bdde2eedU,
  0xbea4f610be863633U, 0x3e158338bd92abfdU, 0xbda51d38be11cd7eU, 0xbe73c37abeb25c51U,
  0x3e7dfd743e8f83ffU, 0xbf3d8828bea18693U, 0x3eca9203be1aa968U, 0xbe133e573e241ae0U,
  0x3cdd4595bdc66866U, 0xbe349ab03de937c5U, 0x3e3c7169bde56e83U, 0xbdba01e93e1abe05U,
  0x3e95e8a33e2e32eaU, 0xbe5fa43c3e6b8856U, 0x3c9233d93d8e4813U, 0x3db29b533dd468c8U,
  0xbd83242abd8edb81U, 0x3e2528563e3e7f6fU, 0x3d32264f3ed6af69U, 0xbf37284cbe2ed467U,
  0x3e52f89d3e9b07deU, 0xbf45d832be622960U, 0x3e41206cbd39f059U, 0xbe94e694be1d4f3eU,
  0x3ec7651b3e2692a1U, 0xbe7b2918be03bf4bU, 0x3efdc05f3cb3032aU, 0xbe278cafbd69d904U,
  0x3dc3f039bf07ac4eU, 0xbe422684bcd35e07U, 0x3f239acd3ee32cedU, 0x3ec448163c89e37cU,
  0x3f0f74123e08af5fU, 0x3e9e264c3c46ed9fU, 0x3e622df0bf0e70a0U, 0xbd02ba3dbe9c28c9U,
  0x3ead8359bd6447f4U, 0x3ed124563eb74d25U, 0xbe0c208cbed633ebU, 0x3e0ac8933e949552U,
  0x3e8f9f25be9dd9f6U, 0xbe2ff7d4be807622U, 0xbe3789cebe9399c3U, 0x3ec4c89d3dfd91e0U,
  0x3d92433c3ec3e651U, 0x3c297aedbe8df431U, 0x3dc257a53ebe6b16U, 0xbef44738bf0285b9U,
  0xbdd8d377bf06cf84U, 0x3e1555163dec504dU, 0xbedf1bc3bc3af20dU, 0xbdc82428bdda992bU,
  0xbea81a1bbe8cae04U, 0xbe93af383dbfac59U, 0x3f259ff53e70d363U, 0x3ebf0a673e28aa4fU,
  0x3f0ab7283e37e8f4U, 0x3e91d50b3e70d1eeU, 0x3e3c60cbbdd3a39dU, 0x3dca9f383e8b7304U,
  0x3e8b5324bdd83e9eU, 0xbedb2f51bf4398acU, 0xbe62f0ad3e3d6c53U, 0xbf16bdf4bedb1d05U,
  0x3dcf69563da5eddeU, 0x3e25edde3e8a4639U, 0x3e181a0c3e78e4cdU, 0xbd8a46393e2cd7c7U,
  0xbe6b10fa3d25eddeU, 0x3e181a0c3d25eddeU, 0xbca5edde3e2cd7c7U, 0xbe7fceb63d78e4cdU,
  0xbd5d3d283e9f03f5U, 0x3e71fae43e419583U, 0x3c5d3d283e33c1b0U, 0xbe9130223df8e4cdU,
  0x3d78e4cdbe181a0cU, 0x3db3c1b03e33c1b0U, 0xbe6b10fabed9c833U, 0x3e487f6cbe4f6956U,
  0xbdb3c1b0be3aab9aU, 0x3d981a0c3c5d3d28U, 0xbd8a4639bf5b82aeU, 0x3d0a46393d8a4639U,
  0x3e56533fbe035c50U, 0x3da5edde3dcf6956U, 0x3bdd3d28bebaab9aU, 0x3e33c1b03e56533fU,
  0x3cdd3d2800000000U, 0x3bdd3d28be835c50U, 0xbd8a46393d25eddeU, 0x3d78e4cd3ca5eddeU,
  0x3e4195833d78e4cdU, 0xbdb3c1b0bdeb10faU, 0xbe56533f3e3aab9aU, 0xbe4f6956be3aab9aU,
  0x3e33c1b03dc19583U, 0x3d419583bdc19583U, 0xbdf8e4cd3e56533fU, 0xbd981a0cbe86d144U,
  0xbf11fec83d192ce3U, 0xbe5c3086be860747U, 0xbe529db8be0f9a15U, 0x3d65c354becdd451U,
  0xbe0f9a15bdbf781cU, 0xbd992ce3beb5e54eU, 0xbde5c354becdd451U, 0x3d8607473e992ce3U,
  0xbf46a636be8f9a15U, 0xbeb11be6bf97fa89U, 0xbdac527fbf0d3561U, 0xbf0f9a15be35e54eU,
  0xbeac527f3d992ce3U, 0x3e22bfb13dac527fU, 0xbc992ce300000000U, 0x3eb5e54e3d860747U,
  0x3e5c30863e860747U, 0x3d8607473e860747U, 0xbd8607473e94637cU, 0x3ef41f8a3e992ce3U,
  0x3de5c354bd860747U, 0x3e35e54e3dbf781cU, 0xbc192ce3bc192ce3U, 0x3e5c30863e6f5623U,
  0xbc192ce33e22bfb1U, 0x3e0607473d860747U, 0xbde5c3543e0f9a15U, 0x3ef8e8f13e860747U,
  0x3e860747bd192ce3U, 0x3c192ce33e3f781cU, 0xbde5c3543e860747U, 0x3f14637c3e860747U,
  0x3e35e54ebd192ce3U, 0x3dd29db83e2c527fU, 0xbe8ad0aebf205afeU, 0x3e2c527f3e65c354U,
  0xbe1e787ebee3cd34U, 0xbe671a62bd6db4bcU, 0x3d040f13be744f17U, 0xbdd34b52bdabad33U,
  0xbe0aa96ebe744f17U, 0xbe3f7c42bd840f13U, 0xbbd34b52be7ae971U, 0xbee3cd34be2512d8U,
  0x3e59e5ad3e46169dU, 0x3e2512d8bc534b52U, 0x3c9e787e3e040f13U, 0xbe9b2b503e671a62U,
  0x3bd34b52bf51a4bbU, 0xbe4cb0f7be2512d8U, 0xbe040f13bed6987fU, 0xbd040f133d9e787eU,
  0xbe1143c8bde08007U, 0xbd1e787e3db8e1e8U, 0x3d1e787ebc534b52U, 0xbe1143c83d6db4bcU,
  0x3d9143c83d840f13U, 0x3e875c413d38e1e8U, 0x3d38e1e83e2512d8U, 0xbde080073e3f7c42U,
  0x3de080073e97de23U, 0x3d534b52bec6169dU, 0x3e608007be4cb0f7U, 0x3ea1c5abbe6db4bcU,
  0xbbd34b52bc9e787eU, 0x3e32478dbdabad33U, 0xbdc6169d3e38e1e8U, 0x3ed34b523e040f13U,
  0x3dedb4bc3eb594baU, 0x3e17de233d38e1e8U, 0x3dfae9713eabad33U, 0x3dedb4bc3e1e787eU,
  0xbe52224fbd602498U, 0xbd281b723d9ec497U, 0x3dcd76e13de97b74U, 0xbe56cdbd3c956dbbU,
  0x3c156dbb3e4d76e1U, 0x3e2cc6e03dfc292cU, 0x3e3f74983dfc292cU, 0xbedb792b3c156dbbU,
  0x3d6024983ea37005U, 0x3e97c3723e48cb73U, 0x3d3ac92a3dc42005U, 0x3e2cc6e03de97b74U,
  0xbc602498bf11ed29U, 0xbda81b723d956dbbU, 0xbe956dbbbef2d250U, 0x3e56cdbdbb956dbbU,
  0xbc6024983db1724eU, 0x3dcd76e13c956dbbU, 0x3c602498bf1442e0U, 0x3d3ac92abd4d76e1U,
  0x3e3f74983d4d76e1U, 0xbdb1724e3d956dbbU, 0x3d82c0043e72d250U, 0x3d4d76e13e02c004U,
  0x3dd6cdbdbd82c004U, 0xbde02498bd4d76e1U, 0xbdc420053dc42005U, 0x3ecd76e1bd4d76e1U,
  0x3cbac92abe876b71U, 0xbdf2d250be777dbeU, 0xbe156dbb3e602498U, 0xbe777dbebdbac92aU,
  0x3ce02498bda81b72U, 0xbe02c004bdbac92aU, 0xbe6024983e5b792bU, 0xbd956dbbbe3f7498U,
  0x3e263fb7be4abe18U, 0x3d01c1573e8ff27dU, 0x3d9a15973ea438b2U, 0xbe2a4dc2be1a1597U,
  0x3e01c157bdc2a202U, 0xbe1e23a2be672063U, 0x3d11f982bd01c157U, 0xbe96078dbe5af643U,
  0xbd9a1597be16078dU, 0x3d9a15973e16078dU, 0xbe2231adbe631258U, 0xbc42a202bd01c157U,
  0x3e05cf62beb677e2U, 0x3e1a15973e85cf62U, 0xbcc2a202bc01c157U, 0x3db269d8be4ecc23U,
  0x3d11f982bcc2a202U, 0x3e980e92bd01c157U, 0xbd9a15973cc2a202U, 0xbe3677e23e8ff27dU,
  0xbe42a202bf00bdd4U, 0x3b81c157bececc23U, 0xbe77588ebd01c157U, 0xbd52da2d3dba85edU,
  0xbca231ad3e05cf62U, 0x3d81c157be9c1c9dU, 0x3e3e93f8beb677e2U, 0xbdfb6699be7b6699U,
  0x3e3269d83d2231adU, 0xbdaa4dc2bdf34a83U, 0xbe1e23a23dc2a202U, 0x3edcfd48be85cf62U,
  0x3e6312583eae5bcdU, 0x3ea02aa73dcabe18U, 0x3e2a4dc23e42a202U, 0x3eb677e23db269d8U,
  0x3cb0be09bdf77073U, 0x3e27e7bcbdf77073U, 0xbe0023603e163b21U, 0xbb8d64d43e163b21U,
  0x3d9f116ebb8d64d4U, 0x3c54173e3e27e7bcU, 0x3cb0be09be46d5caU, 0x3df77073bd777073U,
  0xbcf77073be5ced8bU, 0x3d848e873ddced8bU, 0xbd963b213e0d64d4U, 0x3ec4a0373e8f9a67U,
  0xbe9aa6483d30be09U, 0x3d426aa43d9f116eU, 0x3ddced8b3db99456U, 0xbe002360be8258f3U,
  0xbe1aa6483e2c52e2U, 0x3d0d64d4be237c95U, 0x3e2c52e2be163b21U, 0xbdb994563c8d64d4U,
  0x3e0023603dc26aa4U, 0x3d9f116ebeb99456U, 0xbe588265bcf77073U, 0x3e6a2effbe0d64d4U,
  0xbed4173ebe65c3d8U, 0x3d30be093dee9a26U, 0xbdb994563c0d64d4U, 0x3ea37c95bdb0be09U,
  0xbed64cd1bd426aa4U, 0x3d0d64d43e426aa4U, 0xbd8d64d4be73054cU, 0x3d8d64d43e3dff7dU,
  0x3db99456bcf77073U, 0xbb8d64d4be8d64d4U, 0xbdcb40f13f0c4a0aU, 0xbeb0be09bd777073U,
  0x3daba213bd5e1d09U, 0xbd9770e33c724e38U, 0x3c724e38be3fd342U, 0x3d21897bbe884c00U,
  0x3de835a13d833fb4U, 0xbdc9ebda3db5baaaU, 0x3de835a1bdde1d09U, 0xbee5af7bbea40fa1U,
  0x3de835a13e3fd342U, 0x3e6d41edbe0d584cU, 0x3daba213bd5e1d09U, 0x3d21897b3dde1d09U,
  0xbd5e1d09be85c5daU, 0xbdb5baaa3e1770e3U, 0xbd0d584cbe44df8eU, 0x3daba213bdc9ebdaU,
  0xbeaba2133dbfd342U, 0xbd833fb4bd724e38U, 0x3d833fb4bf204668U, 0xbca1897bbba1897bU,
  0xbd49ebda3d833fb4U, 0x3d8d584c3e21897bU, 0xbd724e383ea40fa1U, 0x3e1264973e3fd342U,
  0x3dd40471bd724e38U, 0xbda1897bbe4ef826U, 0xbd833fb4be3fd342U, 0x3ecc7200bdf24e38U,
  0x3e033fb4bdaba213U, 0x3d49ebdabe0d584cU, 0xbe5e1d09bd49ebdaU, 0x3ca1897b3e80b98eU,
  0x3dfc66d0bd724e38U, 0xbcc9ebda3e0d584cU, 0xbe30ae5f3e30ae5fU, 0x3e1c7d2fbd35baaaU,
  0xbda4c886bd388eaaU, 0x3c1e3124bd03d39eU, 0xbd388eaabe8db6b0U, 0x3dc5bd6d3ec9091eU,
  0xbe144e123e6366a4U, 0x3d7a78793de6b254U, 0xbcb88eaa3e31f748U, 0xbe1102613d388eaaU,
  0x3dfa78793d03d39eU, 0xbced49b6bd910261U, 0x3e5983923d110261U, 0xbd1102613d7a7879U,
  0x3d388eaa3db88eaaU, 0xbbd2ec30be9799c2U, 0x3c1e3124be45bd6dU, 0x3e772cc83cd2ec30U,
  0x3da4c886bbd2ec30U, 0xbdb88eaa3dbf260cU, 0x3ced49b63e871f4fU, 0x3eb1f748be3542f9U,
  0xbd45bd6d3c9e3124U, 0x3d388eaa3dab5fe7U, 0x3de6b254be0087edU, 0xbc52ec303db1f748U,
  0x3e1e31243d9799c2U, 0xbd83d39ebdd2ec30U, 0x3e217cd53e31f748U, 0xbed14658be772cc8U,
  0x3e1ae5733e8c10d8U, 0x3d6d49b6be1ae573U, 0xbc1e3124bd83d39eU, 0x3e49091ebe4271bcU,
  0xbe388eaabe2b5fe7U, 0xbd9102613d388eaaU, 0xbe1102613d83d39eU, 0xbd45bd6d3e69fe05U,
  0x3c825489bdb3343cU, 0xbd53c95fbd38a26dU, 0x3c8d30eabe180d4aU, 0x3d437ece3d0d30eaU,
  0x3bd9378fbc025489U, 0xbe0d30eabd3e109dU, 0xbb2dc60cbc980d4aU, 0xbda2e9abbd6ef050U,
  0x3cc37ecebdd68077U, 0x3aadc60cbdec3938U, 0xbd53c95fbde98220U, 0xbd2dc60c3d745e81U,
  0xbe1c1fefbd33343cU, 0xbd53c95fbc825489U, 0x3d437ecebdb8a26dU, 0x3da032933bd9378fU,
  0xbde98220be203293U, 0x3d980d4abd6413f0U, 0xbe091e453c980d4aU, 0x3d745e81be0bd55eU,
  0xbd7f3ae2bd1d7b7bU, 0x3cadc60c3b825489U, 0xbdd11246bda857dcU, 0x3deef0503cadc60cU,
  0xbe050ba1bd07c2b9U, 0xbdab0ef4be0e8c76U, 0xbcd9378fbce413f0U, 0x3d025489bd955632U,
  0x3cce5b2ebdeef050U, 0xbd8fe802be2c6a80U, 0xbc6ef050bde413f0U, 0x3b2dc60c3d3e109dU,
  0xbde413f03dd11246U, 0x3dcba416bcc37eceU, 0x3d82548900000000U, 0xbd9ac463bd6413f0U,
  0x3e7717ee3c980ebaU, 0xbe7717eebe9ccf30U, 0xbebbb22ebe934e44U, 0xbdc793543ea6501bU,
  0xbc641617bdd11440U, 0xbe5a952b3d8e8dceU, 0x3e09cd59be479354U, 0xbd8e8dcebec2d2deU,
  0x3dda952b3e3951f3U, 0x3e004c6d3de41617U, 0xbd3e1268be9a6ef5U, 0xbe850ce3bc180ebaU,
  0x3dbe1268be3e1268U, 0xbe850ce3bec53319U, 0xbdb4917dbf134e44U, 0xbd511440be0e8dceU,
  0xbe050ce3bdc79354U, 0xbd3e12683d641617U, 0x3b980ebabd511440U, 0x3c6416173e180ebaU,
  0xbd2b10913c641617U, 0x3d2b1091bd850ce3U, 0x3dab1091bed5d4b6U, 0xbee8d68d3e2fd107U,
  0x3e4793543ed3747bU, 0x3eab10913d511440U, 0x3ecc53ca3e2b1091U, 0x3e8e8dce3ea18fa6U,
  0x3e180ebabf0afd76U, 0xbe55d4b6bec79354U, 0xbe511440bf16de9dU, 0x3cbe12683e0e8dceU,
  0xbd8e8dce3e4c53caU, 0x3c6416173db4917dU, 0xbda18fa63e180ebaU, 0xbe8c2d93be1ccf30U,
  0xbed64c4e3dba589dU, 0x3e7240003e5f9d8aU, 0x3e7240003d5f9d8aU, 0xbeba589d3e9e64ecU,
  0xbefb913b3d9513b1U, 0x3ddf9d8a3ec3a9d8U, 0x3e1513b1be02713bU, 0x3e1513b13e3a589dU,
  0xbeba589dbd1513b1U, 0x3e27b6273e27b627U, 0x3d1513b100000000U, 0x3eb1076200000000U,
  0x3c9513b13e9513b1U, 0x3e27b6273e1513b1U, 0x3eccfb133e9513b1U, 0xbf27b6273eccfb13U,
  0x3d1513b13d9513b1U, 0x3e4cfb133e02713bU, 0x3e82713b3e1513b1U, 0xbe1513b13e9513b1U,
  0x3e5f9d8a3d9513b1U, 0x3e7240003e27b627U, 0x3e1513b13ef24000U, 0x3f0bc27600000000U,
  0xbe724000bdba589dU, 0xbf19bc4fbe5f9d8aU, 0xbf6d9762c013e98aU, 0x3d9513b1bfd3f800U,
  0xbe8bc276be9513b1U, 0xbe9513b1bef24000U, 0xbf724000beccfb13U, 0x3eb10762bf230d8aU,
  0xbd5f9d8a3e27b627U, 0xbf485276U, 0xbf644627bf2c5ec5U, 0xbd5f9d8abf0719d8U,
  0xbd06d9493d4a45eeU, 0xbdca45ee3db96ac4U, 0x3d4a45ee3da88f9bU, 0x3e0b1013bcebfc40U,
  0xbd6bfc403da88f9bU, 0x3e0b10133c4a45eeU, 0xbd17b472bda88f9bU, 0xbd17b4723e56ea4cU,
  0xbe06d9493e30fd30U, 0x3debfc403e2cc666U, 0x3de38eab3e4a45eeU, 0x3d4a45ee3d7cd769U,
  0x3d86d949be02a27fU, 0x3d7cd7693ca88f9bU, 0xbc4a45ee3e5f57e1U, 0x3e8b10133e202207U,
  0x3db96ac43d8f46deU, 0x3da02207bd4a45eeU, 0x3e2022073d17b472U, 0xbca88f9bbdca45eeU,
  0x3e2cc666be1beb3cU, 0x3dc1d859bc86d949U, 0xbd7cd7693cebfc40U, 0x3dd2b3823e56ea4cU,
  0x3da022073e3533faU, 0xbe1beb3cbdb0fd30U, 0x3ca88f9b3ea88f9bU, 0x3f05cb96be137da8U,
  0x3dd2b3823db0fd30U, 0x3da02207be916243U, 0xbe288f9b3e17b472U, 0xbd6bfc40bda02207U,
  0x3d288f9b3cebfc40U, 0x3d5b2117bd288f9bU, 0xbe3533fa3ea67436U, 0xbd5b2117be638eabU,
  0xbd946fb2bd5ea78aU, 0xbe20ce563db98b9eU, 0xbdad2cfa3dc5ea42U, 0xbe08110d3e0e405fU,
  0xbddea78a3e0e405fU, 0x3dc5ea42bd45ea42U, 0x3df764d23e1a9f04U, 0xbc946fb2be08110dU,
  0x3cc5ea423e398b9eU, 0x3eb98b9e3e88110dU, 0x3e01e1bb3e1a9f04U, 0x3e9a9f043e713580U,
  0x3e146fb2bf445e6dU, 0xbc45ea423c946fb2U, 0xbe7764d2bed248e6U, 0x3e84f9643ec901ebU,
  0xbbc5ea423dad2cfaU, 0xbd5ea78abd7764d2U, 0x3cc5ea42be4c1994U, 0xbd5ea78abdeb062eU,
  0x3e45ea42bd45ea42U, 0xbd88110dbbc5ea42U, 0x3deb062e3e81e1bbU, 0x3cf764d2be146fb2U,
  0xbbc5ea42bcf764d2U, 0xbd5ea78abddea78aU, 0x3dad2cfa3ea6fda8U, 0x3e45ea423ead2cfaU,
  0xbdc5ea42bee1bf33U, 0xbdc5ea423d946fb2U, 0xbe2d2cfa3c45ea42U, 0xbd88110dbe20ce56U,
  0xbcf764d2bddea78aU, 0xbd946fb2bcc5ea42U, 0xbd5ea78abdad2cfaU, 0xbf12e3ddbea0ce56U,
  0x3e6f33b8bf499cf6U, 0x3e1d309dbddab2f1U, 0x3e3f5c93bf2adbccU, 0x3e685e20bd08afd7U,
  0x3ea09b69beebc8ecU, 0x3e4d07c23ea09b69U, 0xbbdab2f13e08afd7U, 0x3e53dd593d240635U,
  0x3e8f856ebf165b06U, 0x3eb1b164be53dd59U, 0xbd965b06beae4698U, 0xbdb1b164be3886fbU,
  0x3da40635bf46322aU, 0xbea09b69bf58fd8bU, 0x3d3f5c93bf5592bfU, 0x3e6188893ca40635U,
  0x3e5ab2f1be965b06U, 0xbea406353d5ab2f1U, 0xbeb1b164be0f856eU, 0x3d3f5c93bbdab2f1U,
  0x3e618889bed74825U, 0x3df6094f3d240635U, 0xbea77101beb51c30U, 0x3e01da3fbe92f03aU,
  0x3e4d07c2bcdab2f1U, 0xbe31b164bdf6094fU, 0x3e85450b3e240635U, 0xbf2250cfbe3886fbU,
  0x3e965b063ca40635U, 0xbe31b164be7cdee7U, 0xbd5ab2f13e85450bU, 0xbf4111f9bf12f03aU,
  0x3e3f5c93be53dd59U, 0xbddab2f1be2adbccU, 0xbbdab2f13e01da3fU, 0xbf14a5a0bed74825U,
  0x3d318b3bbeab7dc2U, 0xbdd1d3183c811f71U, 0x3e21674d3e154c5bU, 0xbb811f713e359437U,
  0x3b811f713e011f71U, 0x3e11435f3dfa2cebU, 0x3e154c5b3c011f71U, 0x3db18b3b3d41af2aU,
  0xbc41af2a3e154c5bU, 0x3e6e11f83e011f71U, 0x3e05286dbd91435fU, 0xbd11435f3eaf86beU,
  0x3e05286dbd11435fU, 0x3e195556bca1674dU, 0xbe41af2abd21674dU, 0x3f001d323e093168U,
  0x3e7a2ceb3d011f71U, 0x3da979443d61f706U, 0xbdd9e50f3e811f71U, 0x3e0931683e318b3bU,
  0x3e257049bdc1af2aU, 0xbe21674d00000000U, 0x3d893168U, 0x3e05286d3e59e50fU,
  0x3e51d3183e91435fU, 0xbdc9c1213d21674dU, 0xbd61f7063e297944U, 0x3ef623efbc41af2aU,
  0x3e55dc133da1674dU, 0x3e399d323b811f71U, 0x3b811f713ecbc59eU, 0x3e9750d83d995556U,
  0x3d51d318bc011f71U, 0x3dea08fdbd811f71U, 0x3d011f71be011f71U, 0xbe811f713e257049U,
  0x3d7f32f93e8c5c09U, 0xbcff32f93d4c28c7U, 0x3dcc28c7be3904f4U, 0xbcff32f9be58eb53U,
  0x3e72706c3d65ade0U, 0xbe892b66be92bd4fU, 0xbd191e953e2c4268U, 0x3d8c5c09befc0256U,
  0x3ccc28c7be25e122U, 0xbd8c5c09bcff32f9U, 0xbe5f4c9abc991e95U, 0x3f0c5c09bed8eb53U,
  0xbe991e95becc28c7U, 0xbd7f32f93e78d1b3U, 0xbdcc28c7be9f7fdbU, 0x3da5e122be991e95U,
  0xbd4c28c7bdb2a3aeU, 0xbd7f32f9be85fac3U, 0xbdb2a3aebccc28c7U, 0xbe05fac33dd8eb53U,
  0x3d32a3aebe72706cU, 0x3d7f32f9bbcc28c7U, 0x3da5e122bbcc28c7U, 0xbdff32f9bd191e95U,
  0xbd7f32f9bda5e122U, 0xbea911c5bd191e95U, 0x3d65ade0bf4a9075U, 0x3eac42683d7f32f9U,
  0xbbcc28c7bda5e122U, 0x3db2a3aeU, 0xbd7f32f93ea911c5U, 0x3e892b663e45c781U,
  0x3bcc28c73ebf663bU, 0x3e4c28c73e3904f4U, 0x3e9c4f383e5f4c9aU, 0x3ea5e122be65ade0U,
  0xbc1a3c67bd4bfe54U, 0xbe22f43dbe21b0d0U, 0x3c853580be279d0eU, 0xbd5191a9bda3c44dU,
  0xbd6fdc7ebd7ee235U, 0xbdbd7624bccf20c0U, 0x3f1affb0bdbb5694U, 0xbe95deb3be3bc9d9U,
  0x3d800000U, 0x3f055590be1cc00cU, 0xbdeaca20bd31ff4fU, 0xbd567e41bec85d32U,
  0xbe49b9afbe6548a4U, 0xbf0274053e23702cU, 0x3c4a14f03f183a69U, 0x3ee26828be41be0aU,
  0xbf088ff6beaa4338U, 0xbf2bcacc3e4856afU, 0x3e17560d3ec4f575U, 0x3e7d2fce3d739255U,
  0x3dd6a3a33ba0aaa5U, 0x3f5bc2143d6d1713U, 0x3e43b245bef253a0U, 0xbf0c6b623e5fac74U,
  0x3e616d9dbcc3b078U, 0xbe632eb2bdb3e446U,
};


ai_handle g_network_weights_table[1 + 2] = {
  AI_HANDLE_PTR(AI_MAGIC_MARKER),
  AI_HANDLE_PTR(s_network_weights_array_u64),
  AI_HANDLE_PTR(AI_MAGIC_MARKER),
};

